unsigned char model_tflite[] = {
  0x1c, 0x00, 0x00, 0x00, 0x54, 0x46, 0x4c, 0x33, 0x14, 0x00, 0x20, 0x00,
  0x1c, 0x00, 0x18, 0x00, 0x14, 0x00, 0x10, 0x00, 0x0c, 0x00, 0x00, 0x00,
  0x08, 0x00, 0x04, 0x00, 0x14, 0x00, 0x00, 0x00, 0x1c, 0x00, 0x00, 0x00,
  0x98, 0x00, 0x00, 0x00, 0xf0, 0x00, 0x00, 0x00, 0xf4, 0x0d, 0x00, 0x00,
  0x04, 0x0e, 0x00, 0x00, 0x68, 0x12, 0x00, 0x00, 0x03, 0x00, 0x00, 0x00,
  0x01, 0x00, 0x00, 0x00, 0x10, 0x00, 0x00, 0x00, 0x00, 0x00, 0x0a, 0x00,
  0x10, 0x00, 0x0c, 0x00, 0x08, 0x00, 0x04, 0x00, 0x0a, 0x00, 0x00, 0x00,
  0x0c, 0x00, 0x00, 0x00, 0x1c, 0x00, 0x00, 0x00, 0x3c, 0x00, 0x00, 0x00,
  0x0f, 0x00, 0x00, 0x00, 0x73, 0x65, 0x72, 0x76, 0x69, 0x6e, 0x67, 0x5f,
  0x64, 0x65, 0x66, 0x61, 0x75, 0x6c, 0x74, 0x00, 0x01, 0x00, 0x00, 0x00,
  0x04, 0x00, 0x00, 0x00, 0x90, 0xff, 0xff, 0xff, 0x07, 0x00, 0x00, 0x00,
  0x04, 0x00, 0x00, 0x00, 0x08, 0x00, 0x00, 0x00, 0x6f, 0x75, 0x74, 0x70,
  0x75, 0x74, 0x5f, 0x30, 0x00, 0x00, 0x00, 0x00, 0x01, 0x00, 0x00, 0x00,
  0x04, 0x00, 0x00, 0x00, 0xf6, 0xf1, 0xff, 0xff, 0x04, 0x00, 0x00, 0x00,
  0x0c, 0x00, 0x00, 0x00, 0x6b, 0x65, 0x72, 0x61, 0x73, 0x5f, 0x74, 0x65,
  0x6e, 0x73, 0x6f, 0x72, 0x00, 0x00, 0x00, 0x00, 0x02, 0x00, 0x00, 0x00,
  0x34, 0x00, 0x00, 0x00, 0x04, 0x00, 0x00, 0x00, 0xdc, 0xff, 0xff, 0xff,
  0x0a, 0x00, 0x00, 0x00, 0x04, 0x00, 0x00, 0x00, 0x13, 0x00, 0x00, 0x00,
  0x43, 0x4f, 0x4e, 0x56, 0x45, 0x52, 0x53, 0x49, 0x4f, 0x4e, 0x5f, 0x4d,
  0x45, 0x54, 0x41, 0x44, 0x41, 0x54, 0x41, 0x00, 0x08, 0x00, 0x0c, 0x00,
  0x08, 0x00, 0x04, 0x00, 0x08, 0x00, 0x00, 0x00, 0x09, 0x00, 0x00, 0x00,
  0x04, 0x00, 0x00, 0x00, 0x13, 0x00, 0x00, 0x00, 0x6d, 0x69, 0x6e, 0x5f,
  0x72, 0x75, 0x6e, 0x74, 0x69, 0x6d, 0x65, 0x5f, 0x76, 0x65, 0x72, 0x73,
  0x69, 0x6f, 0x6e, 0x00, 0x0b, 0x00, 0x00, 0x00, 0x00, 0x0d, 0x00, 0x00,
  0xf8, 0x0c, 0x00, 0x00, 0xe8, 0x09, 0x00, 0x00, 0xcc, 0x09, 0x00, 0x00,
  0xbc, 0x08, 0x00, 0x00, 0xac, 0x00, 0x00, 0x00, 0xa4, 0x00, 0x00, 0x00,
  0x9c, 0x00, 0x00, 0x00, 0x94, 0x00, 0x00, 0x00, 0x74, 0x00, 0x00, 0x00,
  0x04, 0x00, 0x00, 0x00, 0x9e, 0xf2, 0xff, 0xff, 0x04, 0x00, 0x00, 0x00,
  0x60, 0x00, 0x00, 0x00, 0x10, 0x00, 0x00, 0x00, 0x00, 0x00, 0x00, 0x00,
  0x08, 0x00, 0x0e, 0x00, 0x08, 0x00, 0x04, 0x00, 0x08, 0x00, 0x00, 0x00,
  0x10, 0x00, 0x00, 0x00, 0x24, 0x00, 0x00, 0x00, 0x00, 0x00, 0x06, 0x00,
  0x08, 0x00, 0x04, 0x00, 0x06, 0x00, 0x00, 0x00, 0x04, 0x00, 0x00, 0x00,
  0x00, 0x00, 0x00, 0x00, 0x0c, 0x00, 0x18, 0x00, 0x14, 0x00, 0x10, 0x00,
  0x0c, 0x00, 0x04, 0x00, 0x0c, 0x00, 0x00, 0x00, 0x06, 0xe0, 0x2d, 0xe0,
  0xc2, 0x3c, 0x64, 0x53, 0x02, 0x00, 0x00, 0x00, 0x02, 0x00, 0x00, 0x00,
  0x04, 0x00, 0x00, 0x00, 0x06, 0x00, 0x00, 0x00, 0x32, 0x2e, 0x31, 0x39,
  0x2e, 0x30, 0x00, 0x00, 0x0a, 0xf3, 0xff, 0xff, 0x04, 0x00, 0x00, 0x00,
  0x10, 0x00, 0x00, 0x00, 0x31, 0x2e, 0x35, 0x2e, 0x30, 0x00, 0x00, 0x00,
  0x00, 0x00, 0x00, 0x00, 0x00, 0x00, 0x00, 0x00, 0x6c, 0xef, 0xff, 0xff,
  0x70, 0xef, 0xff, 0xff, 0x74, 0xef, 0xff, 0xff, 0x32, 0xf3, 0xff, 0xff,
  0x04, 0x00, 0x00, 0x00, 0x00, 0x08, 0x00, 0x00, 0x29, 0x71, 0x4d, 0xbe,
  0xb5, 0x89, 0x52, 0x3b, 0xb9, 0x7c, 0x13, 0xbe, 0x22, 0xbb, 0x00, 0x3e,
  0x1c, 0xcb, 0x84, 0xbd, 0x95, 0xbd, 0x2b, 0x3e, 0x0d, 0x13, 0x2f, 0x3e,
  0xfc, 0x40, 0xab, 0xbe, 0xaa, 0x08, 0x8a, 0xbe, 0x7e, 0x0f, 0x44, 0xbe,
  0x9f, 0xdf, 0xec, 0x3d, 0x0b, 0x0f, 0x96, 0x3d, 0x83, 0xfa, 0x80, 0x3e,
  0xab, 0x46, 0x75, 0x3e, 0xde, 0x7f, 0xa5, 0xbd, 0xf8, 0xb8, 0x57, 0x3e,
  0x5a, 0xf2, 0x64, 0xbe, 0xf6, 0x53, 0xa9, 0x3e, 0xe1, 0x30, 0x40, 0xbe,
  0xb6, 0x9f, 0x12, 0xbe, 0x5e, 0xd5, 0x31, 0x3e, 0x51, 0xc0, 0x23, 0x3e,
  0x22, 0x40, 0xb6, 0xbd, 0x7b, 0xe9, 0x92, 0xbd, 0x9f, 0x7f, 0x1d, 0x3e,
  0xfb, 0x81, 0xd4, 0xbe, 0xcb, 0xea, 0x84, 0xbe, 0x23, 0x94, 0x1a, 0x3e,
  0x73, 0x26, 0x57, 0xbd, 0x5d, 0xda, 0xbc, 0x3b, 0x6e, 0x6f, 0xa3, 0xbe,
  0xc3, 0xb6, 0xf3, 0xbd, 0x78, 0x87, 0xaa, 0x3d, 0x6a, 0xf5, 0x89, 0x3c,
  0xc0, 0xca, 0xa3, 0x3d, 0xbf, 0x07, 0xf6, 0xbc, 0xcb, 0xa3, 0x73, 0x3e,
  0xea, 0xc5, 0xc4, 0xbc, 0x63, 0x1d, 0xa5, 0xbe, 0xa5, 0x0a, 0x81, 0x3c,
  0xe4, 0x0c, 0x86, 0xbe, 0x4a, 0xc5, 0x08, 0x3f, 0x06, 0xce, 0x51, 0x3b,
  0xb3, 0x8d, 0xd4, 0xbd, 0xca, 0xda, 0x9a, 0xbe, 0xbd, 0xcf, 0x3b, 0xbe,
  0x5e, 0x70, 0xa0, 0x3d, 0x89, 0xf6, 0xc9, 0xbe, 0x65, 0x1a, 0x40, 0x3d,
  0xc0, 0x4c, 0x4c, 0xbd, 0x90, 0xe7, 0x3d, 0xbe, 0x75, 0x6d, 0x97, 0xbd,
  0xc2, 0xb0, 0xa1, 0xbe, 0x72, 0x8d, 0x79, 0xbe, 0x9b, 0x46, 0x97, 0x3d,
  0x75, 0xbb, 0x64, 0xbe, 0xe7, 0x14, 0xac, 0xbc, 0x49, 0xc3, 0xfe, 0xbd,
  0x0c, 0x52, 0x37, 0x3e, 0x1d, 0xc4, 0x8b, 0x3d, 0xcf, 0x5f, 0x50, 0x3e,
  0x0d, 0xe3, 0x1c, 0xbd, 0x9f, 0x53, 0x0c, 0x3d, 0x9b, 0x7c, 0xe5, 0x3d,
  0x31, 0xda, 0xb7, 0xbe, 0x0c, 0x88, 0x80, 0x3e, 0x5c, 0x81, 0xdf, 0x3c,
  0x75, 0x12, 0x2a, 0x3d, 0x7b, 0xf1, 0x35, 0x3e, 0x2d, 0x51, 0x15, 0x3e,
  0x7d, 0x39, 0x74, 0xbe, 0x35, 0x4c, 0x19, 0xbe, 0xec, 0xdf, 0x99, 0x3d,
  0x11, 0xa6, 0x3d, 0xbf, 0x6c, 0x02, 0x16, 0xbe, 0xfa, 0xa6, 0xe2, 0xbd,
  0x3f, 0x2c, 0xc3, 0xbd, 0xf8, 0xc7, 0xaa, 0x3d, 0x3f, 0xd8, 0xea, 0xbe,
  0x69, 0xf4, 0xe7, 0x3d, 0xed, 0x92, 0x41, 0xbe, 0x2f, 0xf6, 0xc1, 0xbe,
  0x8d, 0x4c, 0x56, 0xbe, 0x32, 0x79, 0x4b, 0xbe, 0x0b, 0x7d, 0x23, 0x3e,
  0x43, 0x92, 0x67, 0x3d, 0x44, 0x66, 0x53, 0xbe, 0x8d, 0x82, 0x5d, 0x3e,
  0xc6, 0x86, 0x9e, 0x3c, 0x3d, 0x9d, 0x07, 0xbf, 0xe1, 0x27, 0x4c, 0xbe,
  0x4c, 0x72, 0x51, 0xbe, 0x31, 0x84, 0x2b, 0x3e, 0x0e, 0xa7, 0xd8, 0xbc,
  0xb9, 0x07, 0x22, 0x3e, 0xc5, 0xec, 0x45, 0xbe, 0xea, 0xf8, 0xb1, 0xbd,
  0x30, 0x27, 0x90, 0xbd, 0x7f, 0x48, 0x8f, 0xbe, 0x85, 0x38, 0xac, 0xbe,
  0xaa, 0x77, 0x2a, 0x3d, 0x01, 0xe1, 0x1e, 0x3e, 0x6d, 0xb5, 0x2a, 0xbc,
  0x55, 0x7e, 0xd6, 0xbe, 0x02, 0xc6, 0x0d, 0xbe, 0xcc, 0xcc, 0xf9, 0xbd,
  0xab, 0x8a, 0xc8, 0xbc, 0xad, 0x68, 0x5f, 0x3d, 0xf0, 0x62, 0x19, 0xbe,
  0x76, 0x15, 0x9f, 0x3e, 0x2c, 0x0b, 0x98, 0x3e, 0xf7, 0xfd, 0x56, 0xbd,
  0xcf, 0xf3, 0xe2, 0xbc, 0x59, 0xb4, 0x3e, 0xbe, 0xc3, 0x25, 0x1b, 0x3e,
  0x1b, 0xfa, 0x99, 0x3e, 0x9f, 0x4a, 0x39, 0xbe, 0x6a, 0x7f, 0xcf, 0xbd,
  0xfd, 0x87, 0x42, 0xbe, 0xb1, 0x57, 0xd3, 0xbc, 0x41, 0x38, 0x62, 0xbe,
  0xb7, 0xa5, 0x3e, 0x3f, 0x86, 0x98, 0xe7, 0x3c, 0x64, 0x60, 0x85, 0x3e,
  0x34, 0xe9, 0xcf, 0xbe, 0x48, 0x46, 0x0c, 0xbf, 0x54, 0x02, 0x59, 0xbe,
  0x28, 0x35, 0xea, 0xbd, 0xfd, 0x6f, 0x79, 0xbd, 0x6a, 0xb4, 0xca, 0x3c,
  0x26, 0x3e, 0x89, 0x3d, 0xbc, 0x46, 0x59, 0x3e, 0xa4, 0x0d, 0xbf, 0x3e,
  0xe7, 0xc6, 0x05, 0xbe, 0xfd, 0xc9, 0xdd, 0x3d, 0x20, 0xae, 0xd0, 0x3e,
  0xdc, 0x28, 0x73, 0x3e, 0x89, 0x69, 0xdc, 0xbe, 0x1b, 0xa6, 0x77, 0xbe,
  0x3a, 0xcf, 0x82, 0xbe, 0xeb, 0x74, 0x5f, 0xbe, 0x36, 0x2b, 0x98, 0xbd,
  0xc9, 0x75, 0x14, 0x3c, 0x48, 0xcf, 0x5a, 0x3e, 0xfc, 0x81, 0x07, 0x3d,
  0x49, 0x03, 0x58, 0xbd, 0x4a, 0xbb, 0x92, 0x3c, 0xf0, 0xf7, 0x64, 0x3e,
  0x30, 0x96, 0xed, 0x3d, 0xea, 0x7a, 0x6c, 0x3b, 0x21, 0x69, 0x22, 0xbe,
  0x6f, 0x55, 0x05, 0xbe, 0x91, 0xf1, 0x00, 0x3d, 0xa4, 0xe6, 0x0f, 0xbe,
  0xe6, 0x30, 0x7b, 0x3e, 0x36, 0xd8, 0xa4, 0xbd, 0xf0, 0x6a, 0x91, 0xbd,
  0x37, 0x7a, 0x82, 0x3e, 0xb8, 0x2a, 0x88, 0x3e, 0x73, 0x89, 0x07, 0xbb,
  0x27, 0x75, 0x4f, 0xbe, 0x85, 0x2d, 0xe4, 0xbe, 0x49, 0x6f, 0x1f, 0xbe,
  0xb9, 0x07, 0x82, 0xbc, 0xc4, 0xf8, 0x82, 0xbd, 0xf9, 0x99, 0x44, 0xbe,
  0x62, 0x15, 0x9a, 0xbe, 0x75, 0x6c, 0x01, 0xbe, 0xf5, 0xc9, 0x6b, 0x3e,
  0x4e, 0xa9, 0x42, 0xbc, 0xe3, 0xb2, 0x40, 0xbe, 0x26, 0xad, 0x97, 0x3d,
  0x65, 0xbe, 0xa3, 0x3e, 0xb9, 0x57, 0x72, 0x3e, 0xd6, 0x92, 0xe3, 0x3a,
  0xb2, 0x0a, 0xd2, 0x3d, 0x54, 0xa9, 0x08, 0x3d, 0x50, 0x9e, 0x0d, 0xbf,
  0xde, 0x4c, 0xa5, 0xbe, 0xaa, 0x40, 0x04, 0xbe, 0xe6, 0x81, 0x35, 0xbe,
  0x97, 0x75, 0x81, 0xbe, 0xaa, 0xd6, 0xff, 0x3d, 0x68, 0xac, 0x79, 0x3e,
  0x48, 0x76, 0x1f, 0x3d, 0x17, 0xdc, 0xd2, 0x3e, 0xfb, 0xe0, 0x53, 0xbe,
  0x84, 0x72, 0x6e, 0x3e, 0xc0, 0x5d, 0x2f, 0xbe, 0xfc, 0x5c, 0x19, 0x3c,
  0xf2, 0x0c, 0xa9, 0x3c, 0x68, 0xd9, 0xce, 0xbe, 0x9d, 0xe9, 0x96, 0x3e,
  0x78, 0xab, 0x0a, 0x3e, 0xe7, 0x1d, 0xb2, 0x3e, 0x4b, 0x01, 0xbf, 0x3e,
  0x4a, 0xbf, 0xa3, 0x3e, 0x91, 0x85, 0x77, 0x3e, 0x26, 0xd5, 0xca, 0x3e,
  0xf0, 0x0a, 0x87, 0x3c, 0x47, 0x27, 0x8b, 0xbd, 0x3e, 0x77, 0x1c, 0xbe,
  0xb3, 0x12, 0x14, 0x3e, 0xbd, 0xdf, 0xab, 0xbb, 0xeb, 0xf6, 0xa9, 0x3e,
  0x8d, 0xd7, 0x2b, 0x3b, 0xfd, 0xc6, 0xbd, 0x3e, 0x25, 0x35, 0xa2, 0x3e,
  0x0c, 0xa1, 0x04, 0xbe, 0x04, 0x59, 0xab, 0xbe, 0x76, 0xa1, 0xb5, 0x3d,
  0x10, 0xf9, 0xac, 0xbe, 0xd8, 0x64, 0x59, 0xbe, 0xa1, 0xca, 0x65, 0xbe,
  0x3c, 0xee, 0x76, 0xbe, 0xbc, 0x81, 0x09, 0x3e, 0xfb, 0x93, 0x32, 0xbe,
  0x92, 0xbc, 0x6c, 0xbe, 0x04, 0xc7, 0x9e, 0xbe, 0xc9, 0xf2, 0x1a, 0xbe,
  0x6d, 0x2a, 0x1e, 0x3e, 0xc1, 0x08, 0x41, 0xbe, 0xd8, 0x32, 0x02, 0xbe,
  0x46, 0xd0, 0xb4, 0xbe, 0x3d, 0xed, 0xfe, 0xbd, 0x91, 0x5b, 0xc8, 0x3e,
  0xcc, 0x48, 0x23, 0x3e, 0xd6, 0x96, 0x8c, 0x3e, 0xb9, 0x43, 0x6f, 0xbe,
  0x51, 0x95, 0xb7, 0xbe, 0xaa, 0xa4, 0x47, 0xbd, 0xda, 0xcc, 0xa9, 0xbe,
  0xc4, 0xa3, 0x5c, 0x3e, 0x30, 0x9d, 0x65, 0xbc, 0x50, 0xef, 0xc2, 0xbd,
  0xe8, 0x1c, 0xbd, 0x3e, 0x98, 0x2d, 0x3b, 0xbe, 0xbe, 0xc7, 0xc9, 0x3d,
  0xe0, 0xce, 0xb1, 0x3e, 0xfb, 0xa7, 0x51, 0x3e, 0x1f, 0xeb, 0x0f, 0xbe,
  0xae, 0xbe, 0xe6, 0x3d, 0x0f, 0xb3, 0x7f, 0x3e, 0x36, 0xbe, 0x76, 0x3c,
  0xbd, 0x4d, 0x61, 0xbd, 0x80, 0xa9, 0x4e, 0x3e, 0x2b, 0x60, 0xb5, 0x3e,
  0xd9, 0x4d, 0xa3, 0xbc, 0xa1, 0x01, 0x87, 0xbd, 0xce, 0xf9, 0x38, 0xbe,
  0xa1, 0x00, 0x80, 0x3c, 0x2e, 0xc5, 0x6f, 0x3e, 0x1c, 0x9d, 0x18, 0x3e,
  0x6e, 0xeb, 0xc2, 0xbb, 0x80, 0xf8, 0xbc, 0x3d, 0xf1, 0x88, 0x90, 0x3e,
  0x83, 0x88, 0x43, 0x3d, 0xd6, 0xa5, 0xf4, 0xbe, 0xbe, 0x30, 0x11, 0xbe,
  0x1d, 0x62, 0xa5, 0xbe, 0x6c, 0x73, 0x2b, 0xbd, 0x3f, 0x87, 0x0c, 0x3e,
  0x21, 0x51, 0x93, 0xbe, 0xc4, 0xae, 0x79, 0x3e, 0x3d, 0x74, 0x7f, 0x3e,
  0x7c, 0x64, 0xc9, 0xbe, 0xcc, 0x84, 0x27, 0xbe, 0x39, 0x12, 0x45, 0xbe,
  0x61, 0xb0, 0x09, 0x3d, 0x2d, 0xf1, 0x65, 0xbe, 0x9e, 0x5f, 0xa3, 0xbe,
  0xe8, 0xb6, 0x50, 0x3e, 0x32, 0x25, 0x30, 0x3d, 0xb4, 0xf5, 0x9d, 0x3e,
  0x76, 0xc5, 0x13, 0xbe, 0xb3, 0x6e, 0xac, 0xbd, 0x54, 0x8c, 0x7a, 0x3e,
  0x10, 0x1d, 0xbe, 0x3d, 0xbe, 0x8c, 0x96, 0x3e, 0x83, 0x5c, 0x9d, 0x3d,
  0x37, 0xa5, 0x61, 0xbe, 0xe5, 0xb3, 0x1a, 0xbf, 0xf7, 0xed, 0x52, 0xbe,
  0x2d, 0xa5, 0x9c, 0xbe, 0xde, 0x09, 0xf7, 0x3b, 0x7c, 0x80, 0xf5, 0x3d,
  0x4b, 0x03, 0x42, 0xbd, 0xcf, 0x27, 0x80, 0x3e, 0x52, 0x49, 0xd8, 0xbe,
  0x42, 0x47, 0x68, 0x3e, 0xb0, 0x89, 0x0d, 0xbe, 0x8f, 0xa8, 0x19, 0x3e,
  0x75, 0x7f, 0x23, 0xbe, 0x8e, 0x1d, 0x9f, 0xbe, 0x4f, 0x76, 0xa2, 0xbe,
  0x6e, 0x72, 0xed, 0x3d, 0xf6, 0x63, 0x93, 0x3e, 0x6d, 0x1e, 0xb7, 0x3e,
  0xcb, 0xcb, 0x1b, 0x3e, 0x3d, 0x35, 0x32, 0xbc, 0x1b, 0x1a, 0xbe, 0x3e,
  0x18, 0x7d, 0xac, 0x3e, 0x24, 0xb7, 0xbe, 0x3e, 0x7c, 0x0e, 0x0a, 0xbe,
  0xfe, 0x18, 0xa1, 0xbe, 0x87, 0x97, 0xca, 0x3e, 0xf4, 0x5a, 0x50, 0x3d,
  0x2b, 0x6c, 0x2f, 0x3e, 0x26, 0xeb, 0xaf, 0x3c, 0x84, 0x57, 0xa7, 0xbe,
  0x25, 0x79, 0x82, 0xbe, 0xda, 0x65, 0xe7, 0x3b, 0x8b, 0x00, 0x04, 0xbe,
  0x96, 0xfa, 0x07, 0x3f, 0xe9, 0xb8, 0xfc, 0x3d, 0xa7, 0xa6, 0x7f, 0xbe,
  0xd7, 0xfb, 0x12, 0xbe, 0x05, 0x51, 0x1f, 0x3d, 0x3d, 0x28, 0x56, 0xbe,
  0xbb, 0xe8, 0x4d, 0xbe, 0xdc, 0x5f, 0x94, 0xbe, 0x1e, 0x68, 0xbb, 0x3e,
  0xad, 0x4b, 0x1f, 0x3e, 0x4c, 0xe1, 0xae, 0x3c, 0xe0, 0xd4, 0x37, 0xbd,
  0x0a, 0xa9, 0x9f, 0x3d, 0x2c, 0x0f, 0xf4, 0xbc, 0xfe, 0x14, 0xbd, 0xbe,
  0x91, 0x28, 0x8b, 0xbe, 0x4f, 0x1e, 0x22, 0x3e, 0xab, 0x1b, 0xc5, 0xbc,
  0x0d, 0x2d, 0x9c, 0xbd, 0x7a, 0x52, 0x8a, 0xbe, 0x1c, 0x6a, 0x32, 0xbe,
  0x03, 0x6e, 0x71, 0xbe, 0x3c, 0x7e, 0xce, 0xbe, 0x5d, 0x3b, 0x68, 0x3e,
  0x32, 0x71, 0x13, 0xbe, 0x08, 0xc8, 0x7b, 0x3d, 0xbc, 0xe1, 0xfb, 0xbc,
  0x0b, 0x77, 0x27, 0x3e, 0xa0, 0x3d, 0xd9, 0xba, 0xc6, 0x31, 0x68, 0x3e,
  0x40, 0x72, 0x2b, 0xbe, 0x78, 0xd0, 0x11, 0xbe, 0x3a, 0xf3, 0x6e, 0x3e,
  0xd9, 0x2a, 0x10, 0xbe, 0xff, 0x5e, 0xc3, 0xbe, 0xf2, 0xca, 0xfd, 0xbd,
  0x4c, 0x72, 0x4a, 0xbe, 0x97, 0xcc, 0xa5, 0xbe, 0xe0, 0x63, 0xb1, 0xbe,
  0xd5, 0xa1, 0x82, 0x3e, 0xa8, 0x6d, 0x30, 0xbf, 0x1e, 0xd8, 0x69, 0xbe,
  0x20, 0xee, 0x82, 0xbe, 0xd8, 0xab, 0x32, 0x3e, 0x99, 0xec, 0x0a, 0xbe,
  0x47, 0x76, 0xa4, 0xbe, 0xda, 0x6e, 0x19, 0x3c, 0x35, 0x1b, 0x42, 0xbd,
  0x18, 0x21, 0xe6, 0x3d, 0x55, 0xbe, 0x5e, 0x3d, 0xe2, 0xf8, 0x4e, 0x3e,
  0x47, 0x99, 0x33, 0xbc, 0x49, 0x99, 0xe0, 0xbd, 0xfd, 0x30, 0x94, 0x3c,
  0x11, 0x80, 0x64, 0x3e, 0x56, 0xb4, 0x3f, 0x3e, 0x08, 0x5f, 0xc5, 0xbd,
  0x7e, 0x89, 0xeb, 0xbd, 0x8c, 0x28, 0x04, 0x3e, 0x20, 0x63, 0x15, 0x3e,
  0xb6, 0xa9, 0xe1, 0xba, 0xc3, 0x05, 0x82, 0x3d, 0x66, 0x41, 0x2e, 0x3e,
  0x05, 0xdc, 0xb1, 0x3e, 0x2e, 0x13, 0x0c, 0xbe, 0x16, 0x4a, 0x3a, 0x3e,
  0x24, 0x22, 0x19, 0xbe, 0xb1, 0x8c, 0x07, 0x3d, 0xeb, 0x43, 0x39, 0xbd,
  0x44, 0x24, 0x4e, 0x3e, 0xd6, 0x1f, 0x35, 0x3e, 0x94, 0x82, 0x68, 0x3e,
  0x06, 0xf6, 0x0a, 0x3b, 0x30, 0x8c, 0x99, 0x3e, 0xea, 0xa1, 0x4e, 0x3e,
  0x97, 0x79, 0x8b, 0x3e, 0x77, 0x34, 0x20, 0xbe, 0x23, 0x57, 0xc6, 0x3d,
  0xe4, 0x69, 0x86, 0x3b, 0xed, 0x60, 0xd0, 0xbd, 0xc6, 0xdc, 0xad, 0xbc,
  0xac, 0x2d, 0x13, 0x3e, 0x4a, 0x43, 0xc4, 0x3d, 0x26, 0x8d, 0x9d, 0x3e,
  0x3d, 0xa8, 0xb0, 0xbd, 0xc8, 0xb5, 0xb8, 0x3e, 0x22, 0x19, 0x7e, 0x3e,
  0x0d, 0xaf, 0xba, 0x3e, 0x54, 0x5d, 0x39, 0x3e, 0x83, 0x7c, 0x8d, 0xbc,
  0xe1, 0xae, 0xb7, 0x3d, 0x4e, 0xeb, 0x99, 0x3e, 0x66, 0xba, 0x96, 0xbd,
  0x8a, 0x78, 0xcb, 0x3e, 0x62, 0xf8, 0x35, 0x3e, 0x33, 0x20, 0xcd, 0xbe,
  0x50, 0xbc, 0x1a, 0x3f, 0xcb, 0x60, 0xf3, 0x3c, 0x70, 0x34, 0xa2, 0x3d,
  0x4b, 0x93, 0x5c, 0xbe, 0x2b, 0x82, 0x3b, 0xbe, 0x86, 0xde, 0xfd, 0x3c,
  0xaa, 0xb7, 0xfa, 0xbd, 0x44, 0xf0, 0x8c, 0xbe, 0x49, 0xc0, 0x63, 0x3c,
  0x9d, 0xb3, 0xc9, 0x3d, 0xf0, 0xff, 0xde, 0xbc, 0x77, 0xcf, 0x66, 0x3e,
  0xfe, 0x51, 0xa5, 0xbd, 0x9c, 0x87, 0xb2, 0xbd, 0x32, 0x1e, 0x39, 0x3e,
  0xf0, 0x80, 0xb7, 0xbe, 0x63, 0x6d, 0xb7, 0x3e, 0x58, 0x76, 0x6b, 0xbe,
  0x26, 0xaa, 0x5c, 0xbe, 0x60, 0x9c, 0x81, 0xbd, 0x1a, 0xcc, 0x9c, 0xbe,
  0x69, 0xd7, 0xd7, 0xbe, 0x7d, 0x52, 0xe8, 0xbe, 0xad, 0x49, 0x72, 0x3e,
  0x81, 0xc2, 0xe7, 0x3d, 0xe2, 0x9a, 0x2b, 0xbb, 0xd6, 0x62, 0xea, 0x3b,
  0xe4, 0xd1, 0x1f, 0xbe, 0xa7, 0x20, 0x31, 0xbc, 0x7b, 0x3c, 0xe1, 0x3d,
  0x24, 0x37, 0x75, 0xbe, 0x00, 0x5d, 0x04, 0x3e, 0x1f, 0xf9, 0x92, 0xbd,
  0xce, 0xf5, 0x51, 0xbd, 0x4f, 0x94, 0xa7, 0x3e, 0x7a, 0xd1, 0xfb, 0x3c,
  0x64, 0x4d, 0x8e, 0x3e, 0xfd, 0x7e, 0x92, 0x3e, 0x72, 0xf8, 0xa1, 0x3c,
  0x42, 0x77, 0xd2, 0x3c, 0x85, 0x85, 0x1a, 0xbe, 0x96, 0xc7, 0x0f, 0x3e,
  0x98, 0xf3, 0xf9, 0x3c, 0x15, 0x45, 0x5a, 0x3e, 0x08, 0x45, 0x81, 0xbc,
  0x94, 0xf1, 0xb2, 0x3d, 0x3e, 0x35, 0xfb, 0x3d, 0x2a, 0xfa, 0xd8, 0xbe,
  0x64, 0x97, 0x11, 0x3f, 0x31, 0x86, 0x39, 0x3e, 0xde, 0x04, 0xc1, 0x3d,
  0x90, 0xad, 0xd1, 0xbe, 0xde, 0x5f, 0xd7, 0xbe, 0xb6, 0x8b, 0x97, 0xbd,
  0xb0, 0x56, 0x68, 0xbc, 0x43, 0x95, 0x6e, 0xbe, 0x11, 0x50, 0x7e, 0xbd,
  0xb5, 0xef, 0x7d, 0xbe, 0x50, 0xce, 0x52, 0xbe, 0x6f, 0x27, 0x94, 0xbe,
  0x40, 0xed, 0xbf, 0xbe, 0xc3, 0x1e, 0x62, 0xbe, 0x08, 0x8e, 0x01, 0xbe,
  0xef, 0x29, 0x17, 0x3e, 0xc0, 0x4b, 0xd1, 0xbe, 0x2b, 0x6c, 0x83, 0xbe,
  0xdd, 0x4c, 0xcc, 0xbb, 0x9b, 0x9e, 0x46, 0xbe, 0xc7, 0xfb, 0x4c, 0xbe,
  0x38, 0xee, 0x21, 0xbe, 0xa3, 0x79, 0x56, 0x3e, 0x8c, 0x99, 0xba, 0x3e,
  0x21, 0xab, 0x12, 0xbe, 0x2b, 0x36, 0x95, 0x3e, 0xbb, 0x9a, 0x98, 0x3e,
  0x18, 0xf9, 0xb3, 0xbd, 0x17, 0x16, 0x56, 0x3c, 0x2c, 0x7f, 0xa1, 0x3d,
  0xfd, 0xae, 0xed, 0xbd, 0xfa, 0x4d, 0x5a, 0x3e, 0xce, 0x6b, 0xdd, 0xbc,
  0xb3, 0x4e, 0xa8, 0x3e, 0xf7, 0xa3, 0x29, 0x3e, 0x8e, 0x0d, 0x25, 0x3e,
  0xbd, 0xa3, 0xe1, 0x3d, 0x1a, 0x17, 0x07, 0xbe, 0x1d, 0xc1, 0x67, 0x3e,
  0x27, 0x15, 0xf0, 0x3d, 0x60, 0xc8, 0x87, 0x3d, 0x27, 0x5f, 0x92, 0x3e,
  0xd4, 0x6e, 0xa4, 0x3e, 0x40, 0x59, 0xb0, 0x3e, 0x36, 0x71, 0x08, 0x3e,
  0x57, 0x51, 0xbb, 0x3e, 0xea, 0xee, 0x94, 0xbd, 0xc7, 0xac, 0x11, 0x3c,
  0xa3, 0xa0, 0x97, 0x3e, 0x9d, 0x8c, 0x0f, 0xbe, 0xfa, 0x72, 0x6b, 0x3e,
  0xe1, 0x97, 0xa6, 0x3e, 0xea, 0x8d, 0x16, 0xbe, 0x83, 0x2c, 0x52, 0x3e,
  0x43, 0x28, 0xb1, 0x3e, 0x3e, 0xfb, 0xff, 0xff, 0x04, 0x00, 0x00, 0x00,
  0x00, 0x01, 0x00, 0x00, 0xb1, 0x14, 0x81, 0x3d, 0x7d, 0x35, 0xb5, 0xbc,
  0x13, 0xa4, 0xf3, 0x3d, 0x4d, 0xae, 0x81, 0xbd, 0x91, 0x7e, 0x2a, 0xbd,
  0x3c, 0x59, 0x1a, 0x3e, 0x74, 0x2a, 0x05, 0x3e, 0x74, 0x0c, 0x05, 0xbd,
  0xc0, 0x37, 0xa8, 0x3d, 0x79, 0xd2, 0x84, 0xbd, 0x63, 0x49, 0xd0, 0xbc,
  0x2f, 0xf3, 0xa8, 0x3b, 0x36, 0x09, 0x12, 0x3e, 0x6d, 0xa1, 0x01, 0xbd,
  0xc2, 0xf5, 0xa9, 0xbd, 0x12, 0x80, 0xa1, 0x3e, 0x5a, 0xf1, 0x00, 0x3e,
  0x3d, 0x7d, 0x34, 0x3d, 0x86, 0xfa, 0x78, 0xbd, 0x31, 0x42, 0xd9, 0x3b,
  0xe2, 0x68, 0x0a, 0x3d, 0x26, 0x94, 0xcf, 0x3d, 0x39, 0xea, 0x60, 0xbd,
  0x1b, 0x48, 0x45, 0x3e, 0xc3, 0x82, 0xdf, 0x3d, 0x8a, 0xeb, 0xb5, 0x3d,
  0xcd, 0x18, 0x95, 0xbd, 0xbe, 0xc4, 0xfc, 0x3d, 0x99, 0x6f, 0x24, 0x3e,
  0x21, 0x11, 0xba, 0x3d, 0xeb, 0xec, 0xa4, 0x3d, 0xf4, 0xff, 0xa5, 0x3d,
  0x38, 0x6a, 0x1b, 0xbd, 0x71, 0x31, 0x4b, 0xbd, 0x29, 0xda, 0x31, 0x3d,
  0xba, 0x40, 0xa2, 0xbc, 0x67, 0xf7, 0x25, 0x3e, 0x75, 0xd1, 0xf6, 0x3d,
  0x01, 0x2f, 0x2b, 0x3e, 0x51, 0x80, 0xcb, 0x3d, 0x30, 0x32, 0x2e, 0x3e,
  0x2d, 0xf3, 0x37, 0x3e, 0xa9, 0x5d, 0x72, 0xbd, 0xb5, 0x29, 0x33, 0x3e,
  0xef, 0x48, 0xe6, 0xbc, 0xeb, 0x28, 0x68, 0xbd, 0xa3, 0x99, 0x70, 0xbd,
  0x9b, 0x13, 0x9d, 0x3d, 0x5d, 0xd9, 0xbd, 0x3d, 0x6d, 0x17, 0xbb, 0x3d,
  0x85, 0xcb, 0x00, 0x3e, 0xa0, 0x6f, 0x80, 0x3e, 0x8d, 0x12, 0x71, 0xbd,
  0x23, 0x21, 0x81, 0x3e, 0xbd, 0x20, 0x96, 0xbd, 0xff, 0x45, 0xa0, 0x3d,
  0x69, 0x58, 0x04, 0xbd, 0x63, 0x77, 0x72, 0x3e, 0x9b, 0x96, 0x7a, 0x3e,
  0x3f, 0xac, 0x33, 0xbd, 0x4e, 0x62, 0xa1, 0x3d, 0x67, 0x2d, 0xa5, 0x3d,
  0xb1, 0x00, 0xce, 0x3d, 0x3b, 0x0f, 0xae, 0x3d, 0x4a, 0xfc, 0xff, 0xff,
  0x04, 0x00, 0x00, 0x00, 0x0c, 0x00, 0x00, 0x00, 0x84, 0xfa, 0xdc, 0xbd,
  0xeb, 0x13, 0x3c, 0xbc, 0xff, 0x99, 0xac, 0x3d, 0x62, 0xfc, 0xff, 0xff,
  0x04, 0x00, 0x00, 0x00, 0x00, 0x03, 0x00, 0x00, 0x2a, 0xbf, 0xbd, 0xbc,
  0xc4, 0xe2, 0x8d, 0xbe, 0x42, 0x43, 0xff, 0xbe, 0x40, 0xd2, 0xb7, 0x3e,
  0x16, 0x29, 0xeb, 0xbd, 0x47, 0x1f, 0x00, 0xbf, 0x0f, 0x32, 0x80, 0x3e,
  0xad, 0x03, 0x10, 0x3d, 0xec, 0xf8, 0x6a, 0xbe, 0x06, 0xe6, 0x95, 0x3e,
  0x21, 0x14, 0x7e, 0x3e, 0x34, 0xff, 0x0b, 0x3f, 0x66, 0xd7, 0x62, 0xbd,
  0x0a, 0x87, 0x11, 0x3d, 0x44, 0x99, 0x0f, 0xbd, 0x58, 0x23, 0x08, 0xbf,
  0x09, 0x52, 0xfe, 0xbd, 0x25, 0x1e, 0x05, 0x3f, 0xae, 0xeb, 0xc1, 0xbd,
  0x43, 0xd5, 0x5e, 0xbe, 0x5b, 0x0f, 0x79, 0x3e, 0x3c, 0x45, 0xcd, 0xbd,
  0xf6, 0x6b, 0x22, 0x3e, 0xe2, 0x73, 0x0a, 0xbf, 0x30, 0x08, 0x7d, 0x3d,
  0x73, 0x59, 0x93, 0x3d, 0xbb, 0x12, 0xcc, 0x3e, 0xeb, 0x63, 0x1f, 0x3e,
  0x42, 0xfa, 0x00, 0xbf, 0xfa, 0xd8, 0x51, 0x3a, 0x8f, 0xbe, 0xa7, 0xbe,
  0x8a, 0xc0, 0x80, 0xbe, 0xf2, 0x1e, 0xa2, 0xbd, 0x70, 0x55, 0xbf, 0x3e,
  0xdc, 0x9c, 0x3d, 0xbe, 0xb5, 0x13, 0x23, 0x3f, 0xc1, 0x64, 0x57, 0xbe,
  0xdf, 0xc7, 0x8c, 0xbe, 0x4a, 0x42, 0xe5, 0xbe, 0xde, 0xa5, 0xcb, 0xbe,
  0x0d, 0xd0, 0xd9, 0xbe, 0xce, 0x31, 0xf9, 0xbd, 0xba, 0x54, 0xbd, 0x3b,
  0x4e, 0x3f, 0x21, 0x3e, 0x81, 0xfa, 0xb7, 0x3e, 0xef, 0x83, 0xb0, 0xbe,
  0x25, 0x0e, 0x8d, 0xbe, 0x43, 0x30, 0x01, 0x3e, 0x2c, 0x52, 0x86, 0xbe,
  0xe4, 0x1c, 0xe7, 0x3d, 0xc1, 0x6b, 0x9a, 0xbe, 0xdf, 0x3a, 0x11, 0xbf,
  0x44, 0x5c, 0x84, 0x3e, 0x3b, 0xe1, 0x9f, 0x3d, 0x11, 0xba, 0x14, 0xbd,
  0x4e, 0xef, 0x44, 0x3e, 0xce, 0x0f, 0xa1, 0x3d, 0x87, 0x7a, 0xb7, 0xbe,
  0x11, 0xdb, 0x14, 0x3e, 0x84, 0x2a, 0x78, 0x3e, 0xbb, 0x4a, 0x6d, 0xbe,
  0xcc, 0x37, 0x91, 0xbe, 0xfe, 0x4d, 0x0a, 0xbe, 0x5e, 0x75, 0x62, 0x3d,
  0x72, 0x06, 0xb4, 0xbe, 0xc3, 0x79, 0xe5, 0xbd, 0x3a, 0xb1, 0x5d, 0xbe,
  0xf4, 0x96, 0x4a, 0x3d, 0xa3, 0xb6, 0x67, 0xbe, 0x3b, 0xe3, 0xe6, 0xbe,
  0x69, 0xd7, 0x04, 0xbf, 0x95, 0x43, 0x99, 0x3d, 0xec, 0x08, 0x45, 0xbe,
  0xe8, 0x3f, 0xf2, 0xbd, 0xb6, 0xeb, 0xd0, 0xbe, 0x53, 0xa0, 0x37, 0xbe,
  0x20, 0x63, 0x4e, 0xbe, 0x69, 0xd0, 0x66, 0x3e, 0x4c, 0xcd, 0x41, 0x3e,
  0xfb, 0x9e, 0x9f, 0xbe, 0xac, 0x92, 0x60, 0x3e, 0x48, 0x59, 0xdf, 0xbe,
  0x6d, 0x7a, 0x12, 0xbe, 0x9b, 0x28, 0x9d, 0x3e, 0x5e, 0xf0, 0xb0, 0xbe,
  0xcb, 0x8b, 0x95, 0x3e, 0x8b, 0x73, 0x82, 0xbe, 0x03, 0x0e, 0xd5, 0xbd,
  0x87, 0x13, 0x61, 0x3e, 0x35, 0x3a, 0xbe, 0x3d, 0x6a, 0x76, 0xc1, 0xbe,
  0xbc, 0x96, 0xb0, 0xbe, 0x7b, 0x92, 0xcb, 0xbb, 0x28, 0x70, 0xa0, 0x3e,
  0x48, 0x86, 0xfb, 0x3d, 0x1b, 0x09, 0xab, 0x3e, 0x73, 0xad, 0xd6, 0xbd,
  0x60, 0xca, 0xd4, 0xbd, 0x17, 0x4e, 0xe9, 0x3e, 0x5a, 0xe5, 0xf7, 0x3d,
  0x84, 0xff, 0xb3, 0xbe, 0xb7, 0x17, 0x53, 0x3e, 0x95, 0x1b, 0xbd, 0x3c,
  0xa2, 0x3f, 0xdc, 0xbc, 0x16, 0x65, 0x09, 0xbe, 0x9b, 0x86, 0xd1, 0xbe,
  0x11, 0x49, 0xf6, 0xbd, 0xd8, 0x01, 0xb7, 0xbd, 0xed, 0xe8, 0xc2, 0x3c,
  0x2b, 0x56, 0xae, 0xbd, 0xf5, 0x00, 0x1e, 0xbe, 0xf6, 0x01, 0xae, 0x3e,
  0x3b, 0x84, 0xa3, 0x3e, 0x5e, 0x9b, 0xa1, 0x3e, 0xa8, 0x34, 0x96, 0x3e,
  0xfd, 0x04, 0x84, 0xbe, 0x93, 0x3c, 0xb6, 0x3d, 0x20, 0xfc, 0x16, 0x3d,
  0x22, 0x96, 0x2c, 0xbe, 0xda, 0xd3, 0x6c, 0x3e, 0xd6, 0x11, 0x23, 0xbd,
  0x09, 0x88, 0xf4, 0xbe, 0x85, 0x31, 0x45, 0xbe, 0x36, 0x86, 0xce, 0xbe,
  0xad, 0x5f, 0x96, 0x3e, 0x0a, 0x9d, 0xb9, 0x3e, 0x0e, 0x3b, 0x01, 0x3e,
  0x06, 0x3d, 0x8b, 0x3e, 0xcd, 0x68, 0x38, 0x3e, 0x7e, 0x5a, 0x2d, 0xbe,
  0xaa, 0x0f, 0x93, 0x3e, 0x45, 0xd7, 0xd8, 0xbe, 0x91, 0x83, 0x75, 0xbe,
  0xee, 0xcb, 0xd6, 0x3e, 0xb2, 0xa8, 0x83, 0x3e, 0x64, 0x9b, 0x5f, 0x3d,
  0xd8, 0x89, 0x90, 0x3e, 0xce, 0x60, 0xc0, 0xbe, 0xf0, 0x96, 0x08, 0xbf,
  0x20, 0x00, 0x1b, 0xbf, 0xa9, 0x47, 0xff, 0x3d, 0xef, 0xe9, 0x1e, 0x3e,
  0x6f, 0x3e, 0x0b, 0xbe, 0xa2, 0x23, 0xbc, 0x3e, 0xfe, 0xe6, 0x02, 0xbe,
  0x53, 0x0c, 0x08, 0xbf, 0xa5, 0x58, 0x22, 0x3e, 0x58, 0x5d, 0x9c, 0x3d,
  0xb2, 0xf5, 0xe4, 0xbd, 0xe0, 0xca, 0xed, 0xbc, 0x64, 0xd6, 0x04, 0xbf,
  0xfe, 0x5d, 0x94, 0x3e, 0x78, 0x8d, 0xd4, 0x3d, 0x77, 0x10, 0x87, 0xbe,
  0x8c, 0x72, 0x82, 0xbe, 0x4a, 0x87, 0x3a, 0x3c, 0x81, 0x36, 0xc8, 0x3e,
  0x54, 0xda, 0xef, 0x3b, 0x7a, 0x12, 0xc3, 0xbe, 0x5d, 0x5b, 0xc2, 0xbe,
  0x70, 0xb9, 0x10, 0xbf, 0x3f, 0xfc, 0xef, 0xbe, 0x5d, 0x1c, 0x7a, 0xbe,
  0x00, 0x7e, 0x68, 0xbd, 0x81, 0x62, 0xfb, 0x3e, 0xdf, 0x2d, 0xd8, 0x3d,
  0x25, 0xcc, 0xe5, 0x3e, 0xcc, 0x2f, 0xfb, 0x3d, 0x78, 0xd3, 0xbe, 0x3e,
  0x35, 0x9c, 0xe1, 0x3d, 0x2c, 0x0b, 0xaa, 0x3d, 0x41, 0xfb, 0xcb, 0x3e,
  0x0f, 0x6e, 0xc3, 0xbe, 0xfe, 0x65, 0x27, 0x3e, 0x1d, 0x1d, 0x00, 0x3e,
  0xac, 0xf7, 0x77, 0xbe, 0x62, 0xb4, 0x84, 0x3d, 0x70, 0x2f, 0xf0, 0xbb,
  0x42, 0xca, 0x56, 0xbd, 0xda, 0x04, 0x11, 0x3e, 0x47, 0x0c, 0x9f, 0x3d,
  0x4b, 0xda, 0xcf, 0x3e, 0x82, 0x80, 0xd4, 0xbd, 0x5c, 0x47, 0x7b, 0xbe,
  0x6f, 0xb3, 0xcc, 0xbd, 0xc7, 0xd3, 0x2f, 0x3e, 0xa8, 0x83, 0x54, 0x3e,
  0x29, 0x1a, 0xe9, 0xbe, 0x37, 0x21, 0xda, 0xbd, 0x7d, 0x55, 0x00, 0x3d,
  0xd5, 0x60, 0xac, 0xbd, 0x70, 0x34, 0xc0, 0xbd, 0xb4, 0xfb, 0xff, 0xff,
  0xb8, 0xfb, 0xff, 0xff, 0x0f, 0x00, 0x00, 0x00, 0x4d, 0x4c, 0x49, 0x52,
  0x20, 0x43, 0x6f, 0x6e, 0x76, 0x65, 0x72, 0x74, 0x65, 0x64, 0x2e, 0x00,
  0x01, 0x00, 0x00, 0x00, 0x14, 0x00, 0x00, 0x00, 0x00, 0x00, 0x0e, 0x00,
  0x18, 0x00, 0x14, 0x00, 0x10, 0x00, 0x0c, 0x00, 0x08, 0x00, 0x04, 0x00,
  0x0e, 0x00, 0x00, 0x00, 0x14, 0x00, 0x00, 0x00, 0x1c, 0x00, 0x00, 0x00,
  0xec, 0x00, 0x00, 0x00, 0xf0, 0x00, 0x00, 0x00, 0xf4, 0x00, 0x00, 0x00,
  0x04, 0x00, 0x00, 0x00, 0x6d, 0x61, 0x69, 0x6e, 0x00, 0x00, 0x00, 0x00,
  0x03, 0x00, 0x00, 0x00, 0x94, 0x00, 0x00, 0x00, 0x50, 0x00, 0x00, 0x00,
  0x14, 0x00, 0x00, 0x00, 0x00, 0x00, 0x0e, 0x00, 0x1a, 0x00, 0x14, 0x00,
  0x10, 0x00, 0x0c, 0x00, 0x0b, 0x00, 0x04, 0x00, 0x0e, 0x00, 0x00, 0x00,
  0x1c, 0x00, 0x00, 0x00, 0x00, 0x00, 0x00, 0x09, 0x1c, 0x00, 0x00, 0x00,
  0x20, 0x00, 0x00, 0x00, 0x01, 0x00, 0x00, 0x00, 0x00, 0x00, 0x06, 0x00,
  0x08, 0x00, 0x04, 0x00, 0x06, 0x00, 0x00, 0x00, 0x00, 0x00, 0x80, 0x3f,
  0x01, 0x00, 0x00, 0x00, 0x07, 0x00, 0x00, 0x00, 0x01, 0x00, 0x00, 0x00,
  0x06, 0x00, 0x00, 0x00, 0xce, 0xff, 0xff, 0xff, 0x10, 0x00, 0x00, 0x00,
  0x00, 0x00, 0x00, 0x08, 0x0c, 0x00, 0x00, 0x00, 0x10, 0x00, 0x00, 0x00,
  0x78, 0xfc, 0xff, 0xff, 0x01, 0x00, 0x00, 0x00, 0x06, 0x00, 0x00, 0x00,
  0x03, 0x00, 0x00, 0x00, 0x05, 0x00, 0x00, 0x00, 0x01, 0x00, 0x00, 0x00,
  0x02, 0x00, 0x00, 0x00, 0x00, 0x00, 0x0e, 0x00, 0x16, 0x00, 0x00, 0x00,
  0x10, 0x00, 0x0c, 0x00, 0x0b, 0x00, 0x04, 0x00, 0x0e, 0x00, 0x00, 0x00,
  0x18, 0x00, 0x00, 0x00, 0x00, 0x00, 0x00, 0x08, 0x18, 0x00, 0x00, 0x00,
  0x1c, 0x00, 0x00, 0x00, 0x00, 0x00, 0x06, 0x00, 0x08, 0x00, 0x07, 0x00,
  0x06, 0x00, 0x00, 0x00, 0x00, 0x00, 0x00, 0x01, 0x01, 0x00, 0x00, 0x00,
  0x05, 0x00, 0x00, 0x00, 0x03, 0x00, 0x00, 0x00, 0x00, 0x00, 0x00, 0x00,
  0x04, 0x00, 0x00, 0x00, 0x03, 0x00, 0x00, 0x00, 0x01, 0x00, 0x00, 0x00,
  0x07, 0x00, 0x00, 0x00, 0x01, 0x00, 0x00, 0x00, 0x00, 0x00, 0x00, 0x00,
  0x08, 0x00, 0x00, 0x00, 0xe4, 0x02, 0x00, 0x00, 0x8c, 0x02, 0x00, 0x00,
  0x18, 0x02, 0x00, 0x00, 0xc0, 0x01, 0x00, 0x00, 0x74, 0x01, 0x00, 0x00,
  0xe0, 0x00, 0x00, 0x00, 0x60, 0x00, 0x00, 0x00, 0x04, 0x00, 0x00, 0x00,
  0x52, 0xfd, 0xff, 0xff, 0x00, 0x00, 0x00, 0x01, 0x14, 0x00, 0x00, 0x00,
  0x1c, 0x00, 0x00, 0x00, 0x1c, 0x00, 0x00, 0x00, 0x08, 0x00, 0x00, 0x00,
  0x34, 0x00, 0x00, 0x00, 0x02, 0x00, 0x00, 0x00, 0xff, 0xff, 0xff, 0xff,
  0x03, 0x00, 0x00, 0x00, 0x3c, 0xfd, 0xff, 0xff, 0x1b, 0x00, 0x00, 0x00,
  0x53, 0x74, 0x61, 0x74, 0x65, 0x66, 0x75, 0x6c, 0x50, 0x61, 0x72, 0x74,
  0x69, 0x74, 0x69, 0x6f, 0x6e, 0x65, 0x64, 0x43, 0x61, 0x6c, 0x6c, 0x5f,
  0x31, 0x3a, 0x30, 0x00, 0x02, 0x00, 0x00, 0x00, 0x01, 0x00, 0x00, 0x00,
  0x03, 0x00, 0x00, 0x00, 0xaa, 0xfd, 0xff, 0xff, 0x00, 0x00, 0x00, 0x01,
  0x14, 0x00, 0x00, 0x00, 0x1c, 0x00, 0x00, 0x00, 0x1c, 0x00, 0x00, 0x00,
  0x07, 0x00, 0x00, 0x00, 0x58, 0x00, 0x00, 0x00, 0x02, 0x00, 0x00, 0x00,
  0xff, 0xff, 0xff, 0xff, 0x03, 0x00, 0x00, 0x00, 0x94, 0xfd, 0xff, 0xff,
  0x3c, 0x00, 0x00, 0x00, 0x73, 0x65, 0x71, 0x75, 0x65, 0x6e, 0x74, 0x69,
  0x61, 0x6c, 0x5f, 0x31, 0x2f, 0x64, 0x65, 0x6e, 0x73, 0x65, 0x5f, 0x31,
  0x5f, 0x32, 0x2f, 0x4d, 0x61, 0x74, 0x4d, 0x75, 0x6c, 0x3b, 0x73, 0x65,
  0x71, 0x75, 0x65, 0x6e, 0x74, 0x69, 0x61, 0x6c, 0x5f, 0x31, 0x2f, 0x64,
  0x65, 0x6e, 0x73, 0x65, 0x5f, 0x31, 0x5f, 0x32, 0x2f, 0x42, 0x69, 0x61,
  0x73, 0x41, 0x64, 0x64, 0x00, 0x00, 0x00, 0x00, 0x02, 0x00, 0x00, 0x00,
  0x01, 0x00, 0x00, 0x00, 0x03, 0x00, 0x00, 0x00, 0x26, 0xfe, 0xff, 0xff,
  0x00, 0x00, 0x00, 0x01, 0x14, 0x00, 0x00, 0x00, 0x1c, 0x00, 0x00, 0x00,
  0x1c, 0x00, 0x00, 0x00, 0x06, 0x00, 0x00, 0x00, 0x6c, 0x00, 0x00, 0x00,
  0x02, 0x00, 0x00, 0x00, 0xff, 0xff, 0xff, 0xff, 0x40, 0x00, 0x00, 0x00,
  0x10, 0xfe, 0xff, 0xff, 0x52, 0x00, 0x00, 0x00, 0x73, 0x65, 0x71, 0x75,
  0x65, 0x6e, 0x74, 0x69, 0x61, 0x6c, 0x5f, 0x31, 0x2f, 0x64, 0x65, 0x6e,
  0x73, 0x65, 0x5f, 0x31, 0x2f, 0x4d, 0x61, 0x74, 0x4d, 0x75, 0x6c, 0x3b,
  0x73, 0x65, 0x71, 0x75, 0x65, 0x6e, 0x74, 0x69, 0x61, 0x6c, 0x5f, 0x31,
  0x2f, 0x64, 0x65, 0x6e, 0x73, 0x65, 0x5f, 0x31, 0x2f, 0x52, 0x65, 0x6c,
  0x75, 0x3b, 0x73, 0x65, 0x71, 0x75, 0x65, 0x6e, 0x74, 0x69, 0x61, 0x6c,
  0x5f, 0x31, 0x2f, 0x64, 0x65, 0x6e, 0x73, 0x65, 0x5f, 0x31, 0x2f, 0x42,
  0x69, 0x61, 0x73, 0x41, 0x64, 0x64, 0x00, 0x00, 0x02, 0x00, 0x00, 0x00,
  0x01, 0x00, 0x00, 0x00, 0x40, 0x00, 0x00, 0x00, 0x0a, 0xff, 0xff, 0xff,
  0x00, 0x00, 0x00, 0x01, 0x10, 0x00, 0x00, 0x00, 0x10, 0x00, 0x00, 0x00,
  0x05, 0x00, 0x00, 0x00, 0x28, 0x00, 0x00, 0x00, 0x90, 0xfe, 0xff, 0xff,
  0x1b, 0x00, 0x00, 0x00, 0x73, 0x65, 0x71, 0x75, 0x65, 0x6e, 0x74, 0x69,
  0x61, 0x6c, 0x5f, 0x31, 0x2f, 0x64, 0x65, 0x6e, 0x73, 0x65, 0x5f, 0x31,
  0x2f, 0x4d, 0x61, 0x74, 0x4d, 0x75, 0x6c, 0x00, 0x02, 0x00, 0x00, 0x00,
  0x40, 0x00, 0x00, 0x00, 0x08, 0x00, 0x00, 0x00, 0x52, 0xff, 0xff, 0xff,
  0x00, 0x00, 0x00, 0x01, 0x10, 0x00, 0x00, 0x00, 0x10, 0x00, 0x00, 0x00,
  0x04, 0x00, 0x00, 0x00, 0x38, 0x00, 0x00, 0x00, 0xd8, 0xfe, 0xff, 0xff,
  0x2b, 0x00, 0x00, 0x00, 0x73, 0x65, 0x71, 0x75, 0x65, 0x6e, 0x74, 0x69,
  0x61, 0x6c, 0x5f, 0x31, 0x2f, 0x64, 0x65, 0x6e, 0x73, 0x65, 0x5f, 0x31,
  0x2f, 0x42, 0x69, 0x61, 0x73, 0x41, 0x64, 0x64, 0x2f, 0x52, 0x65, 0x61,
  0x64, 0x56, 0x61, 0x72, 0x69, 0x61, 0x62, 0x6c, 0x65, 0x4f, 0x70, 0x00,
  0x01, 0x00, 0x00, 0x00, 0x40, 0x00, 0x00, 0x00, 0xa6, 0xff, 0xff, 0xff,
  0x00, 0x00, 0x00, 0x01, 0x10, 0x00, 0x00, 0x00, 0x10, 0x00, 0x00, 0x00,
  0x03, 0x00, 0x00, 0x00, 0x3c, 0x00, 0x00, 0x00, 0x2c, 0xff, 0xff, 0xff,
  0x2d, 0x00, 0x00, 0x00, 0x73, 0x65, 0x71, 0x75, 0x65, 0x6e, 0x74, 0x69,
  0x61, 0x6c, 0x5f, 0x31, 0x2f, 0x64, 0x65, 0x6e, 0x73, 0x65, 0x5f, 0x31,
  0x5f, 0x32, 0x2f, 0x42, 0x69, 0x61, 0x73, 0x41, 0x64, 0x64, 0x2f, 0x52,
  0x65, 0x61, 0x64, 0x56, 0x61, 0x72, 0x69, 0x61, 0x62, 0x6c, 0x65, 0x4f,
  0x70, 0x00, 0x00, 0x00, 0x01, 0x00, 0x00, 0x00, 0x03, 0x00, 0x00, 0x00,
  0x00, 0x00, 0x16, 0x00, 0x18, 0x00, 0x14, 0x00, 0x00, 0x00, 0x10, 0x00,
  0x0c, 0x00, 0x08, 0x00, 0x00, 0x00, 0x00, 0x00, 0x00, 0x00, 0x07, 0x00,
  0x16, 0x00, 0x00, 0x00, 0x00, 0x00, 0x00, 0x01, 0x10, 0x00, 0x00, 0x00,
  0x10, 0x00, 0x00, 0x00, 0x02, 0x00, 0x00, 0x00, 0x1c, 0x00, 0x00, 0x00,
  0x9c, 0xff, 0xff, 0xff, 0x0e, 0x00, 0x00, 0x00, 0x61, 0x72, 0x69, 0x74,
  0x68, 0x2e, 0x63, 0x6f, 0x6e, 0x73, 0x74, 0x61, 0x6e, 0x74, 0x00, 0x00,
  0x02, 0x00, 0x00, 0x00, 0x03, 0x00, 0x00, 0x00, 0x40, 0x00, 0x00, 0x00,
  0x00, 0x00, 0x16, 0x00, 0x1c, 0x00, 0x18, 0x00, 0x00, 0x00, 0x14, 0x00,
  0x10, 0x00, 0x0c, 0x00, 0x00, 0x00, 0x00, 0x00, 0x08, 0x00, 0x07, 0x00,
  0x16, 0x00, 0x00, 0x00, 0x00, 0x00, 0x00, 0x01, 0x14, 0x00, 0x00, 0x00,
  0x20, 0x00, 0x00, 0x00, 0x20, 0x00, 0x00, 0x00, 0x01, 0x00, 0x00, 0x00,
  0x3c, 0x00, 0x00, 0x00, 0x02, 0x00, 0x00, 0x00, 0xff, 0xff, 0xff, 0xff,
  0x08, 0x00, 0x00, 0x00, 0x04, 0x00, 0x04, 0x00, 0x04, 0x00, 0x00, 0x00,
  0x1e, 0x00, 0x00, 0x00, 0x73, 0x65, 0x72, 0x76, 0x69, 0x6e, 0x67, 0x5f,
  0x64, 0x65, 0x66, 0x61, 0x75, 0x6c, 0x74, 0x5f, 0x6b, 0x65, 0x72, 0x61,
  0x73, 0x5f, 0x74, 0x65, 0x6e, 0x73, 0x6f, 0x72, 0x3a, 0x30, 0x00, 0x00,
  0x02, 0x00, 0x00, 0x00, 0x01, 0x00, 0x00, 0x00, 0x08, 0x00, 0x00, 0x00,
  0x02, 0x00, 0x00, 0x00, 0x20, 0x00, 0x00, 0x00, 0x04, 0x00, 0x00, 0x00,
  0xf4, 0xff, 0xff, 0xff, 0x19, 0x00, 0x00, 0x00, 0x00, 0x00, 0x00, 0x19,
  0x0c, 0x00, 0x0c, 0x00, 0x0b, 0x00, 0x00, 0x00, 0x00, 0x00, 0x04, 0x00,
  0x0c, 0x00, 0x00, 0x00, 0x09, 0x00, 0x00, 0x00, 0x00, 0x00, 0x00, 0x09
};
unsigned int model_tflite_len = 4812;
